TRT-5106-EntropyCalibration2
input_1: 3c010a14
conv1: 3d084ad5
bn_conv1: 3e1e61d4
activation_1/Relu: 3e11ae46
block_1a_conv_1: 3e06fbc9
block_1a_conv_shortcut: 3ce09aa5
block_1a_bn_1: 3e20594e
block_1a_bn_shortcut: 3dab904f
activation_2/Relu: 3da8c4aa
block_1a_conv_2: 3d67c933
block_1a_bn_2: 3e0fb9ce
add_1: 3e2ee43a
activation_3/Relu: 3d9134e3
block_2a_conv_1: 3cf69e51
block_2a_conv_shortcut: 3c229410
block_2a_bn_1: 3dc6b2a6
block_2a_bn_shortcut: 3d3587f1
activation_4/Relu: 3d404ccc
block_2a_conv_2: 3ca92fa4
block_2a_bn_2: 3d82fff1
add_2: 3e3f1bb3
activation_5/Relu: 3d6c2a1e
block_3a_conv_1: 3c0c738e
block_3a_conv_shortcut: 3a9a18ac
block_3a_bn_1: 3d8c9ded
block_3a_bn_shortcut: 3c82ae16
activation_6/Relu: 3d0fb094
block_3a_conv_2: 3c12ceee
block_3a_bn_2: 3d99182a
add_3: 3d988d37
activation_7/Relu: 3cfcc213
block_4a_conv_1: 3c0fba57
block_4a_conv_shortcut: 3a49ec7b
block_4a_bn_1: 3d4ebc34
block_4a_bn_shortcut: 3b304963
activation_8/Relu: 3d0f46e3
block_4a_conv_2: 3d2bc598
block_4a_bn_2: 3dd0a854
add_4: 3db05987
activation_9/Relu: 3d723425
conv2d_bbox: 3db80e11
conv2d_cov: 3e6932d0
conv2d_cov/Sigmoid: 3b00039a
