TRT-5106-EntropyCalibration2
input_1: 3f9849a2
conv1: 411b5a2a
bn_conv1: 3db106d9
activation_1/Relu: 3db0acf5
block_1a_conv_1: 3d72c28a
block_1a_conv_shortcut: 3d0e678a
block_1a_bn_1: 3d9d3e7a
block_1a_bn_shortcut: 3da5abd4
activation_2/Relu: 3da1bf13
block_1a_conv_2: 3d82eab5
block_1a_bn_2: 3d90ab0e
add_1: 3dd33001
activation_3/Relu: 3de22a55
block_1b_conv_1: 3d9f7a32
block_1b_conv_shortcut: 3d80dd06
block_1b_bn_1: 3d98c718
block_1b_bn_shortcut: 3d96189a
activation_4/Relu: 3d9b25dc
block_1b_conv_2: 3da45263
block_1b_bn_2: 3dba4b74
add_2: 3e01ddef
activation_5/Relu: 3df23430
block_2a_conv_1: 3d1e5629
block_2a_conv_shortcut: 3d2e7195
block_2a_bn_1: 3d9656ac
block_2a_bn_shortcut: 3d91f183
activation_6/Relu: 3d96c23c
block_2a_conv_2: 3d1341aa
block_2a_bn_2: 3dadec66
add_3: 3dd8cf8e
activation_7/Relu: 3dd891eb
block_2b_conv_1: 3d9a7b06
block_2b_conv_shortcut: 3d5bf4c5
block_2b_bn_1: 3db0c507
block_2b_bn_shortcut: 3d89701f
activation_8/Relu: 3dbb3bf7
block_2b_conv_2: 3d0eca7e
block_2b_bn_2: 3dc9a419
add_4: 3e01454b
activation_9/Relu: 3e04cf70
block_3a_conv_1: 3d311627
block_3a_conv_shortcut: 3d3ee7d5
block_3a_bn_1: 3de8d2d2
block_3a_bn_shortcut: 3db52c8d
activation_10/Relu: 3de82971
block_3a_conv_2: 3d29f954
block_3a_bn_2: 3e065694
add_5: 3e3376ec
activation_11/Relu: 3e3423b7
block_3b_conv_1: 3e024b8a
block_3b_conv_shortcut: 3d8bc193
block_3b_bn_1: 3e1188c9
block_3b_bn_shortcut: 3df26f76
activation_12/Relu: 3e1158dd
block_3b_conv_2: 3d2e0caf
block_3b_bn_2: 3e2412b1
add_6: 3e635cef
activation_13/Relu: 3e635cef
block_4a_conv_1: 3e67d157
block_4a_conv_shortcut: 3d7c213c
block_4a_bn_1: 3e2d8f48
block_4a_bn_shortcut: 3e2670e0
activation_14/Relu: 3e1b318f
block_4a_conv_2: 3ea32cf1
block_4a_bn_2: 3e017ffe
add_7: 3e41f5a7
activation_15/Relu: 3df06c4e
block_4b_conv_1: 3df58335
block_4b_conv_shortcut: 3d2a4b42
block_4b_bn_1: 3e1fe92d
block_4b_bn_shortcut: 3e01f83c
activation_16/Relu: 3e2f8ab9
block_4b_conv_2: 3e36f08a
block_4b_bn_2: 3e0ea9ab
add_8: 3e622a72
activation_17/Relu: 3e3275d7
flatten_1: 3e3275d7
predictions: 3e3b9307
predictions/Softmax: 3c0111e8
