TRT-5106-EntropyCalibration2
input_1: 3f9849a2
conv1: 41dcb997
bn_conv1: 3db0f63a
activation_1/Relu: 3ddd5bb1
block_1a_conv_1: 3d5f099c
block_1a_conv_shortcut: 3cf0a1d2
block_1a_bn_1: 3da8c7aa
block_1a_bn_shortcut: 3d9d87f0
activation_2/Relu: 3da8c7aa
block_1a_conv_2: 3d8b7645
block_1a_bn_2: 3daf78ca
add_1: 3df331d8
activation_3/Relu: 3dd79cda
block_1b_conv_1: 3d794f48
block_1b_conv_shortcut: 3d6b19a4
block_1b_bn_1: 3d9f8262
block_1b_bn_shortcut: 3db561f6
activation_4/Relu: 3d8c6f18
block_1b_conv_2: 3d2e8644
block_1b_bn_2: 3da6d3ea
add_2: 3deeb575
activation_5/Relu: 3dcc87e8
block_2a_conv_1: 3d1809e9
block_2a_conv_shortcut: 3d3172e1
block_2a_bn_1: 3d8ec833
block_2a_bn_shortcut: 3d8e039d
activation_6/Relu: 3d8e1d4d
block_2a_conv_2: 3cbfccf9
block_2a_bn_2: 3d82edca
add_3: 3dbc9bc2
activation_7/Relu: 3dbc9bc2
block_2b_conv_1: 3d3c709d
block_2b_conv_shortcut: 3d22878d
block_2b_bn_1: 3d879793
block_2b_bn_shortcut: 3d789c2e
activation_8/Relu: 3d879793
block_2b_conv_2: 3cd97e20
block_2b_bn_2: 3d8f0c41
add_4: 3dbb2cd4
activation_9/Relu: 3dcc5b83
block_3a_conv_1: 3cf76962
block_3a_conv_shortcut: 3cfcdca8
block_3a_bn_1: 3d842420
block_3a_bn_shortcut: 3d798685
activation_10/Relu: 3d88e381
block_3a_conv_2: 3c932fe8
block_3a_bn_2: 3d7e43e2
add_5: 3da1b5e8
activation_11/Relu: 3da57a6b
block_3b_conv_1: 3d062dda
block_3b_conv_shortcut: 3cdf5a81
block_3b_bn_1: 3d4e1b0e
block_3b_bn_shortcut: 3d4da4ce
activation_12/Relu: 3d55e877
block_3b_conv_2: 3c969533
block_3b_bn_2: 3d64e8a9
add_6: 3d938e49
activation_13/Relu: 3d97e98b
block_4a_conv_1: 3d0bed20
block_4a_conv_shortcut: 3c895bce
block_4a_bn_1: 3d5dff29
block_4a_bn_shortcut: 3d6cea3e
activation_14/Relu: 3d64c256
block_4a_conv_2: 3c3a4811
block_4a_bn_2: 3d8d6fc2
add_7: 3daca78c
activation_15/Relu: 3da503eb
block_4b_conv_1: 3e4cdd3d
block_4b_conv_shortcut: 3cbe3edb
block_4b_bn_1: 3d8b3035
block_4b_bn_shortcut: 3d89d0a2
activation_16/Relu: 3d901276
block_4b_conv_2: 3ca8f4d1
block_4b_bn_2: 3d95f5ce
add_8: 3e0a8f28
activation_17/Relu: 3e16dae7
flatten_1: 3e16dae7
predictions: 3e1ef3e1
predictions/Softmax: 3c01106f
