TRT-5106-EntropyCalibration2
input_1: 3f9849a2
conv1: 418aeb6c
bn_conv1: 3dc4844d
activation_1/Relu: 3ddd40d0
block_1a_conv_1: 3dfa3182
block_1a_conv_shortcut: 3d3dff96
block_1a_bn_1: 3dc62065
block_1a_bn_shortcut: 3da7144b
activation_2/Relu: 3da77cd1
block_1a_conv_2: 3dbb56c2
block_1a_bn_2: 3d939f47
add_1: 3df85e8a
activation_3/Relu: 3df71702
block_1b_conv_1: 3de4ec7d
block_1b_conv_shortcut: 3d9482c8
block_1b_bn_1: 3d9952e2
block_1b_bn_shortcut: 3da6c4a3
activation_4/Relu: 3d84f6f3
block_1b_conv_2: 3d6f51a6
block_1b_bn_2: 3d89c62b
add_2: 3dedf372
activation_5/Relu: 3dc770b7
block_2a_conv_1: 3d36f87f
block_2a_conv_shortcut: 3d2c84cf
block_2a_bn_1: 3d7d313f
block_2a_bn_shortcut: 3d7a2a47
activation_6/Relu: 3d86547f
block_2a_conv_2: 3d4bc1be
block_2a_bn_2: 3d68236c
add_3: 3da43ad9
activation_7/Relu: 3da3a5d9
block_2b_conv_1: 3dc0e21a
block_2b_conv_shortcut: 3d1e13fd
block_2b_bn_1: 3d4bfb97
block_2b_bn_shortcut: 3d60495f
activation_8/Relu: 3d4bfb97
block_2b_conv_2: 3d50f6ce
block_2b_bn_2: 3d822a58
add_4: 3daee8ae
activation_9/Relu: 3db43db0
block_3a_conv_1: 3e5e76a1
block_3a_conv_shortcut: 3cf900cb
block_3a_bn_1: 3d73c18b
block_3a_bn_shortcut: 3d75ddea
activation_10/Relu: 3d743c15
block_3a_conv_2: 3d496c77
block_3a_bn_2: 3d71d88a
add_5: 3db0867d
activation_11/Relu: 3db0bf4d
block_3b_conv_1: 3e2276c4
block_3b_conv_shortcut: 3d14690e
block_3b_bn_1: 3d311c41
block_3b_bn_shortcut: 3d6fdecf
activation_12/Relu: 3d2c5a31
block_3b_conv_2: 3db75f75
block_3b_bn_2: 3d5345bf
add_6: 3da061c3
activation_13/Relu: 3d96c8d1
block_4a_conv_1: 3e615c94
block_4a_conv_shortcut: 3c902f8a
block_4a_bn_1: 3d1d5264
block_4a_bn_shortcut: 3d5aacb0
activation_14/Relu: 3d2399f2
block_4a_conv_2: 3d1a67ca
block_4a_bn_2: 3d2d9976
add_7: 3d88c7cf
activation_15/Relu: 3d8c82f5
block_4b_conv_1: 3f04d6b1
block_4b_conv_shortcut: 3ce9103f
block_4b_bn_1: 3d53d99e
block_4b_bn_shortcut: 3d5df1a3
activation_16/Relu: 3d583a3e
block_4b_conv_2: 3d2e0ae2
block_4b_bn_2: 3d773f72
add_8: 3daf9425
activation_17/Relu: 3db921f7
flatten_1: 3db921f7
predictions: 3e04a177
predictions/Softmax: 3c01c63f
